@00
0011110000000000 0000000000000000 0011110000000000 0000000000000000 0011110000000000 0000000000000000 0011110000000000 0000000000000000 0011110000000000 0000000000000000 0011110000000000
0000000000000000 0011110000000000 0000000000000000 0011110000000000 0000000000000000 0011110000000000 0000000000000000 0011110000000000 0000000000000000 0011110000000000 0011110000000000
0011110000000000 0000000000000000 0011110000000000 0000000000000000 0011110000000000 0000000000000000 0011110000000000 0000000000000000 0011110000000000 0011110000000000 0011110000000000
0000000000000000 0011110000000000 0000000000000000 0011110000000000 0000000000000000 0011110000000000 0000000000000000 0011110000000000 0011110000000000 0011110000000000 0011110000000000
0011110000000000 0000000000000000 0011110000000000 0000000000000000 0011110000000000 0000000000000000 0011110000000000 0011110000000000 0011110000000000 0011110000000000 0011110000000000
0000000000000000 0011110000000000 0000000000000000 0011110000000000 0000000000000000 0011110000000000 0011110000000000 0011110000000000 0011110000000000 0011110000000000 0011110000000000
0011110000000000 0000000000000000 0011110000000000 0000000000000000 0011110000000000 0011110000000000 0011110000000000 0011110000000000 0011110000000000 0011110000000000 0011110000000000
0000000000000000 0011110000000000 0000000000000000 0011110000000000 0011110000000000 0011110000000000 0011110000000000 0011110000000000 0011110000000000 0011110000000000 0011110000000000
0011110000000000 0000000000000000 0011110000000000 0011110000000000 0011110000000000 0011110000000000 0011110000000000 0011110000000000 0011110000000000 0011110000000000 0011110000000000
0000000000000000 0011110000000000 0011110000000000 0011110000000000 0011110000000000 0011110000000000 0011110000000000 0011110000000000 0011110000000000 0011110000000000 0011110000000000
0011110000000000 0011110000000000 0011110000000000 0011110000000000 0011110000000000 0011110000000000 0011110000000000 0011110000000000 0011110000000000 0011110000000000 0011110000000000

0011110000000000 0000000000000000 0011110000000000 0000000000000000 0011110000000000 0000000000000000 0011110000000000 0000000000000000 0011110000000000 0000000000000000 0011110000000000
0000000000000000 0011110000000000 0000000000000000 0011110000000000 0000000000000000 0011110000000000 0000000000000000 0011110000000000 0000000000000000 0011110000000000 0011110000000000
0011110000000000 0000000000000000 0011110000000000 0000000000000000 0011110000000000 0000000000000000 0011110000000000 0000000000000000 0011110000000000 0011110000000000 0011110000000000
0000000000000000 0011110000000000 0000000000000000 0011110000000000 0000000000000000 0011110000000000 0000000000000000 0011110000000000 0011110000000000 0011110000000000 0011110000000000
0011110000000000 0000000000000000 0011110000000000 0000000000000000 0011110000000000 0000000000000000 0011110000000000 0011110000000000 0011110000000000 0011110000000000 0011110000000000
0000000000000000 0011110000000000 0000000000000000 0011110000000000 0000000000000000 0011110000000000 0011110000000000 0011110000000000 0011110000000000 0011110000000000 0011110000000000
0011110000000000 0000000000000000 0011110000000000 0000000000000000 0011110000000000 0011110000000000 0011110000000000 0011110000000000 0011110000000000 0011110000000000 0011110000000000
0000000000000000 0011110000000000 0000000000000000 0011110000000000 0011110000000000 0011110000000000 0011110000000000 0011110000000000 0011110000000000 0011110000000000 0011110000000000
0011110000000000 0000000000000000 0011110000000000 0011110000000000 0011110000000000 0011110000000000 0011110000000000 0011110000000000 0011110000000000 0011110000000000 0011110000000000
0000000000000000 0011110000000000 0011110000000000 0011110000000000 0011110000000000 0011110000000000 0011110000000000 0011110000000000 0011110000000000 0011110000000000 0011110000000000
0011110000000000 0011110000000000 0011110000000000 0011110000000000 0011110000000000 0011110000000000 0011110000000000 0011110000000000 0011110000000000 0011110000000000 0000000000000000

0100000000000000 0000000000000000 0011110000000000 0000000000000000 0011110000000000 0000000000000000 0011110000000000 0000000000000000 0011110000000000 0000000000000000 0011110000000000
0000000000000000 0011110000000000 0000000000000000 0011110000000000 0000000000000000 0011110000000000 0000000000000000 0011110000000000 0000000000000000 0011110000000000 0011110000000000
0011110000000000 0000000000000000 0011110000000000 0000000000000000 0011110000000000 0000000000000000 0011110000000000 0000000000000000 0011110000000000 0011110000000000 0011110000000000
0000000000000000 0011110000000000 0000000000000000 0011110000000000 0000000000000000 0011110000000000 0000000000000000 0011110000000000 0011110000000000 0011110000000000 0011110000000000
0011110000000000 0000000000000000 0011110000000000 0000000000000000 0011110000000000 0000000000000000 0011110000000000 0011110000000000 0011110000000000 0011110000000000 0011110000000000
0000000000000000 0011110000000000 0000000000000000 0011110000000000 0000000000000000 0011110000000000 0011110000000000 0011110000000000 0011110000000000 0011110000000000 0011110000000000
0011110000000000 0000000000000000 0011110000000000 0000000000000000 0011110000000000 0011110000000000 0011110000000000 0011110000000000 0011110000000000 0011110000000000 0011110000000000
0000000000000000 0011110000000000 0000000000000000 0011110000000000 0011110000000000 0011110000000000 0011110000000000 0011110000000000 0011110000000000 0011110000000000 0011110000000000
0011110000000000 0000000000000000 0011110000000000 0011110000000000 0011110000000000 0011110000000000 0011110000000000 0011110000000000 0011110000000000 0011110000000000 0011110000000000
0000000000000000 0011110000000000 0011110000000000 0011110000000000 0011110000000000 0011110000000000 0011110000000000 0011110000000000 0011110000000000 0011110000000000 0011110000000000
0011110000000000 0011110000000000 0011110000000000 0011110000000000 0011110000000000 0011110000000000 0011110000000000 0011110000000000 0011110000000000 0011110000000000 0100000000000000

0100000000000000 0000000000000000 0011110000000000 0000000000000000 0011110000000000 0000000000000000 0011110000000000 0000000000000000 0011110000000000 0000000000000000 0011110000000000
0000000000000000 0011110000000000 0000000000000000 0011110000000000 0000000000000000 0011110000000000 0000000000000000 0011110000000000 0000000000000000 0011110000000000 0011110000000000
0011110000000000 0000000000000000 0011110000000000 0000000000000000 0011110000000000 0000000000000000 0011110000000000 0000000000000000 0011110000000000 0011110000000000 0011110000000000
0000000000000000 0011110000000000 0000000000000000 0011110000000000 0000000000000000 0011110000000000 0000000000000000 0011110000000000 0011110000000000 0011110000000000 0011110000000000
0011110000000000 0000000000000000 0011110000000000 0000000000000000 0011110000000000 0000000000000000 0011110000000000 0011110000000000 0011110000000000 0011110000000000 0011110000000000
0000000000000000 0011110000000000 0000000000000000 0011110000000000 0000000000000000 0011110000000000 0011110000000000 0011110000000000 0011110000000000 0011110000000000 0011110000000000
0011110000000000 0000000000000000 0011110000000000 0000000000000000 0011110000000000 0011110000000000 0011110000000000 0011110000000000 0011110000000000 0011110000000000 0011110000000000
0000000000000000 0011110000000000 0000000000000000 0011110000000000 0011110000000000 0011110000000000 0011110000000000 0011110000000000 0011110000000000 0011110000000000 0011110000000000
0011110000000000 0000000000000000 0011110000000000 0011110000000000 0011110000000000 0011110000000000 0011110000000000 0011110000000000 0011110000000000 0011110000000000 0011110000000000
0000000000000000 0011110000000000 0011110000000000 0011110000000000 0011110000000000 0011110000000000 0011110000000000 0011110000000000 0011110000000000 0011110000000000 0011110000000000
0011110000000000 0011110000000000 0011110000000000 0011110000000000 0011110000000000 0011110000000000 0011110000000000 0011110000000000 0011110000000000 0011110000000000 0100001000000000

0100001000000000 0000000000000000 0011110000000000 0000000000000000 0011110000000000 0000000000000000 0011110000000000 0000000000000000 0011110000000000 0000000000000000 0011110000000000
0000000000000000 0011110000000000 0000000000000000 0011110000000000 0000000000000000 0011110000000000 0000000000000000 0011110000000000 0000000000000000 0011110000000000 0011110000000000
0011110000000000 0000000000000000 0011110000000000 0000000000000000 0011110000000000 0000000000000000 0011110000000000 0000000000000000 0011110000000000 0011110000000000 0011110000000000
0000000000000000 0011110000000000 0000000000000000 0011110000000000 0000000000000000 0011110000000000 0000000000000000 0011110000000000 0011110000000000 0011110000000000 0011110000000000
0011110000000000 0000000000000000 0011110000000000 0000000000000000 0011110000000000 0000000000000000 0011110000000000 0011110000000000 0011110000000000 0011110000000000 0011110000000000
0000000000000000 0011110000000000 0000000000000000 0011110000000000 0000000000000000 0011110000000000 0011110000000000 0011110000000000 0011110000000000 0011110000000000 0011110000000000
0011110000000000 0000000000000000 0011110000000000 0000000000000000 0011110000000000 0011110000000000 0011110000000000 0011110000000000 0011110000000000 0011110000000000 0011110000000000
0000000000000000 0011110000000000 0000000000000000 0011110000000000 0011110000000000 0011110000000000 0011110000000000 0011110000000000 0011110000000000 0011110000000000 0011110000000000
0011110000000000 0000000000000000 0011110000000000 0011110000000000 0011110000000000 0011110000000000 0011110000000000 0011110000000000 0011110000000000 0011110000000000 0011110000000000
0000000000000000 0011110000000000 0011110000000000 0011110000000000 0011110000000000 0011110000000000 0011110000000000 0011110000000000 0011110000000000 0011110000000000 0011110000000000
0011110000000000 0011110000000000 0011110000000000 0011110000000000 0011110000000000 0011110000000000 0011110000000000 0011110000000000 0011110000000000 0011110000000000 0100001000000000

0100001000000000 0000000000000000 0011110000000000 0000000000000000 0011110000000000 0000000000000000 0011110000000000 0000000000000000 0011110000000000 0000000000000000 0011110000000000
0000000000000000 0011110000000000 0000000000000000 0011110000000000 0000000000000000 0011110000000000 0000000000000000 0011110000000000 0000000000000000 0011110000000000 0011110000000000
0011110000000000 0000000000000000 0011110000000000 0000000000000000 0011110000000000 0000000000000000 0011110000000000 0000000000000000 0011110000000000 0011110000000000 0011110000000000
0000000000000000 0011110000000000 0000000000000000 0011110000000000 0000000000000000 0011110000000000 0000000000000000 0011110000000000 0011110000000000 0011110000000000 0011110000000000
0011110000000000 0000000000000000 0011110000000000 0000000000000000 0011110000000000 0000000000000000 0011110000000000 0011110000000000 0011110000000000 0011110000000000 0011110000000000
0000000000000000 0011110000000000 0000000000000000 0011110000000000 0000000000000000 0011110000000000 0011110000000000 0011110000000000 0011110000000000 0011110000000000 0011110000000000
0011110000000000 0000000000000000 0011110000000000 0000000000000000 0011110000000000 0011110000000000 0011110000000000 0011110000000000 0011110000000000 0011110000000000 0011110000000000
0000000000000000 0011110000000000 0000000000000000 0011110000000000 0011110000000000 0011110000000000 0011110000000000 0011110000000000 0011110000000000 0011110000000000 0011110000000000
0011110000000000 0000000000000000 0011110000000000 0011110000000000 0011110000000000 0011110000000000 0011110000000000 0011110000000000 0011110000000000 0011110000000000 0011110000000000
0000000000000000 0011110000000000 0011110000000000 0011110000000000 0011110000000000 0011110000000000 0011110000000000 0011110000000000 0011110000000000 0011110000000000 0011110000000000
0011110000000000 0011110000000000 0011110000000000 0011110000000000 0011110000000000 0011110000000000 0011110000000000 0011110000000000 0011110000000000 0011110000000000 0100010000000000

0100010000000000 0000000000000000 0011110000000000 0000000000000000 0011110000000000 0000000000000000 0011110000000000 0000000000000000 0011110000000000 0000000000000000 0011110000000000
0000000000000000 0011110000000000 0000000000000000 0011110000000000 0000000000000000 0011110000000000 0000000000000000 0011110000000000 0000000000000000 0011110000000000 0011110000000000
0011110000000000 0000000000000000 0011110000000000 0000000000000000 0011110000000000 0000000000000000 0011110000000000 0000000000000000 0011110000000000 0011110000000000 0011110000000000
0000000000000000 0011110000000000 0000000000000000 0011110000000000 0000000000000000 0011110000000000 0000000000000000 0011110000000000 0011110000000000 0011110000000000 0011110000000000
0011110000000000 0000000000000000 0011110000000000 0000000000000000 0011110000000000 0000000000000000 0011110000000000 0011110000000000 0011110000000000 0011110000000000 0011110000000000
0000000000000000 0011110000000000 0000000000000000 0011110000000000 0000000000000000 0011110000000000 0011110000000000 0011110000000000 0011110000000000 0011110000000000 0011110000000000
0011110000000000 0000000000000000 0011110000000000 0000000000000000 0011110000000000 0011110000000000 0011110000000000 0011110000000000 0011110000000000 0011110000000000 0011110000000000
0000000000000000 0011110000000000 0000000000000000 0011110000000000 0011110000000000 0011110000000000 0011110000000000 0011110000000000 0011110000000000 0011110000000000 0011110000000000
0011110000000000 0000000000000000 0011110000000000 0011110000000000 0011110000000000 0011110000000000 0011110000000000 0011110000000000 0011110000000000 0011110000000000 0011110000000000
0000000000000000 0011110000000000 0011110000000000 0011110000000000 0011110000000000 0011110000000000 0011110000000000 0011110000000000 0011110000000000 0011110000000000 0011110000000000
0011110000000000 0011110000000000 0011110000000000 0011110000000000 0011110000000000 0011110000000000 0011110000000000 0011110000000000 0011110000000000 0011110000000000 0100010000000000

0100010000000000 0000000000000000 0011110000000000 0000000000000000 0011110000000000 0000000000000000 0011110000000000 0000000000000000 0011110000000000 0000000000000000 0011110000000000
0000000000000000 0011110000000000 0000000000000000 0011110000000000 0000000000000000 0011110000000000 0000000000000000 0011110000000000 0000000000000000 0011110000000000 0011110000000000
0011110000000000 0000000000000000 0011110000000000 0000000000000000 0011110000000000 0000000000000000 0011110000000000 0000000000000000 0011110000000000 0011110000000000 0011110000000000
0000000000000000 0011110000000000 0000000000000000 0011110000000000 0000000000000000 0011110000000000 0000000000000000 0011110000000000 0011110000000000 0011110000000000 0011110000000000
0011110000000000 0000000000000000 0011110000000000 0000000000000000 0011110000000000 0000000000000000 0011110000000000 0011110000000000 0011110000000000 0011110000000000 0011110000000000
0000000000000000 0011110000000000 0000000000000000 0011110000000000 0000000000000000 0011110000000000 0011110000000000 0011110000000000 0011110000000000 0011110000000000 0011110000000000
0011110000000000 0000000000000000 0011110000000000 0000000000000000 0011110000000000 0011110000000000 0011110000000000 0011110000000000 0011110000000000 0011110000000000 0011110000000000
0000000000000000 0011110000000000 0000000000000000 0011110000000000 0011110000000000 0011110000000000 0011110000000000 0011110000000000 0011110000000000 0011110000000000 0011110000000000
0011110000000000 0000000000000000 0011110000000000 0011110000000000 0011110000000000 0011110000000000 0011110000000000 0011110000000000 0011110000000000 0011110000000000 0011110000000000
0000000000000000 0011110000000000 0011110000000000 0011110000000000 0011110000000000 0011110000000000 0011110000000000 0011110000000000 0011110000000000 0011110000000000 0011110000000000
0011110000000000 0011110000000000 0011110000000000 0011110000000000 0011110000000000 0011110000000000 0011110000000000 0011110000000000 0011110000000000 0011110000000000 0100010100000000

0000000000000000 0000000000000000 0000000000000000 0011110000000000 0011110000000000 0011110000000000 0000000000000000 0000000000000000 0000000000000000
0000000000000000 0000000000000000 0000000000000000 0000000000000000 0000000000000000 0000000000000000 0011110000000000 0011110000000000 0011110000000000
0000000000000000 0000000000000000 0000000000000000 1011110000000000 1011110000000000 1011110000000000 1011110000000000 1011110000000000 1011110000000000
1011110000000000 1011110000000000 1011110000000000 0000000000000000 0000000000000000 0000000000000000 0000000000000000 0000000000000000 0000000000000000

0000000000000000 0000000000000000 0000000000000000 0000000000000000 0000000000000000 0000000000000000 0000000000000000 0000000000000000 0000000000000000 0000000000000000 0000000000000000 0000000000000000 0000000000000000 0000000000000000
0000000000000000 0000000000000000 0000000000000000 0000000000000000 0000000000000000 0000000000000000 0000000000000000 0000000000000000 0000000000000000 0000000000000000 0000000000000000 0000000000000000 0000000000000000 0000000000000000
0000000000000000 0000000000000000 0000000000000000 0000000000000000 0000000000000000 0000000000000000 0000000000000000 0000000000000000 0000000000000000 0000000000000000 0000000000000000 0000000000000000 0000000000000000 0000000000000000
0000000000000000 0000000000000000 0000000000000000 0000000000000000 0000000000000000 0000000000000000 0000000000000000 0000000000000000 0000000000000000 0000000000000000 0000000000000000 0000000000000000 0000000000000000 0000000000000000
0000000000000000 0000000000000000 0000000000000000 0000000000000000 0000000000000000 0000000000000000 0000000000000000 0000000000000000 0000000000000000 0000000000000000 0000000000000000 0000000000000000 0000000000000000 0000000000000000
0000000000000000 0000000000000000 0000000000000000 0000000000000000 0000000000000000 0000000000000000 0000000000000000 0000000000000000 0000000000000000 0000000000000000 0000000000000000 0000000000000000 0000000000000000 0000000000000000
0000000000000000 0000000000000000 0000000000000000 0000000000000000 0000000000000000 0000000000000000 0000000000000000 0000000000000000 0000000000000000 0000000000000000 0000000000000000 0000000000000000 0000000000000000 0000000000000000
0000000000000000 0000000000000000 0000000000000000 0000000000000000 0000000000000000 0000000000000000 0000000000000000 0000000000000000 0000000000000000 0000000000000000 0000000000000000 0000000000000000 0000000000000000 0000000000000000
0000000000000000 0000000000000000 0000000000000000 0000000000000000 0000000000000000 0000000000000000 0000000000000000 0000000000000000 0000000000000000 0000000000000000 0000000000000000 0000000000000000 0000000000000000 0000000000000000
0000000000000000 0000000000000000 0000000000000000 0000000000000000 0000000000000000 0000000000000000 0000000000000000 0000000000000000 0000000000000000 0000000000000000 0000000000000000 0000000000000000 0000000000000000 0000000000000000
0000000000000000 0000000000000000 0000000000000000 0000000000000000 0000000000000000 0000000000000000 0000000000000000 0000000000000000 0000000000000000 0000000000000000 0000000000000000 0000000000000000 0000000000000000 0000000000000000
0000000000000000 0000000000000000 0000000000000000 0000000000000000 0000000000000000 0000000000000000 0000000000000000 0000000000000000 0000000000000000 0000000000000000 0000000000000000 0000000000000000 0000000000000000 0000000000000000
0000000000000000 0000000000000000 0000000000000000 0000000000000000 0000000000000000 0000000000000000 0000000000000000 0000000000000000 0000000000000000 0000000000000000 0000000000000000 0000000000000000 0000000000000000 0000000000000000
0000000000000000 0000000000000000 0000000000000000 0000000000000000 0000000000000000 0000000000000000 0000000000000000 0000000000000000 0000000000000000 0000000000000000 0000000000000000 0000000000000000 0000000000000000 0000000000000000
0000000000000000 0000000000000000 0000000000000000 0000000000000000 0000000000000000 0000000000000000 0000000000000000 0000000000000000 0000000000000000 0000000000000000

0100000000000000 0100000000000000 0100000000000000 0000000000000000 0000000000000000 0000000000000000 0000000000000000 0000000000000000 0000000000000000
1100000000000000 1100000000000000 1100000000000000 0000000000000000 0000000000000000 0000000000000000 0100000000000000 0100000000000000 0100000000000000
0000000000000000 0000000000000000 000000000000000 01100000000000000 1100000000000000 1100000000000000 1100000000000000 1100000000000000 1100000000000000
0000000000000000 0000000000000000 0000000000000000 0100000000000000 0100000000000000 0100000000000000 0000000000000000 0000000000000000 0000000000000000

0000000000000000 0000000000000000 0000000000000000 0000000000000000 0000000000000000 0000000000000000 0000000000000000 0000000000000000 0000000000000000 0000000000000000 0000000000000000 0000000000000000 0000000000000000 0000000000000000
0000000000000000 0000000000000000 0000000000000000 0000000000000000 0000000000000000 0000000000000000 0000000000000000 0000000000000000 0000000000000000 0000000000000000 0000000000000000 0000000000000000 0000000000000000 0000000000000000
0000000000000000 0000000000000000 0000000000000000 0000000000000000 0000000000000000 0000000000000000 0000000000000000 0000000000000000 0000000000000000 0000000000000000 0000000000000000 0000000000000000 0000000000000000 0000000000000000
0000000000000000 0000000000000000 0000000000000000 0000000000000000 0000000000000000 0000000000000000 0000000000000000 0000000000000000 0000000000000000 0000000000000000 0000000000000000 0000000000000000 0000000000000000 0000000000000000
0000000000000000 0000000000000000 0000000000000000 0000000000000000 0000000000000000 0000000000000000 0000000000000000 0000000000000000 0000000000000000 0000000000000000 0000000000000000 0000000000000000 0000000000000000 0000000000000000
0000000000000000 0000000000000000 0000000000000000 0000000000000000 0000000000000000 0000000000000000 0000000000000000 0000000000000000 0000000000000000 0000000000000000 0000000000000000 0000000000000000 0000000000000000 0000000000000000
0000000000000000 0000000000000000 0000000000000000 0000000000000000 0000000000000000 0000000000000000 0000000000000000 0000000000000000 0000000000000000 0000000000000000 0000000000000000 0000000000000000 0000000000000000 0000000000000000
0000000000000000 0000000000000000 0000000000000000 0000000000000000 0000000000000000 0000000000000000 0000000000000000 0000000000000000 0000000000000000 0000000000000000 0000000000000000 0000000000000000 0000000000000000 0000000000000000
0000000000000000 0000000000000000 0000000000000000 0000000000000000 0000000000000000 0000000000000000 0000000000000000 0000000000000000 0000000000000000 0000000000000000 0000000000000000 0000000000000000 0000000000000000 0000000000000000
0000000000000000 0000000000000000 0000000000000000 0000000000000000 0000000000000000 0000000000000000 0000000000000000 0000000000000000 0000000000000000 0000000000000000 0000000000000000 0000000000000000 0000000000000000 0000000000000000
0000000000000000 0000000000000000 0000000000000000 0000000000000000 0000000000000000 0000000000000000 0000000000000000 0000000000000000 0000000000000000 0000000000000000 0000000000000000 0000000000000000 0000000000000000 0000000000000000
0000000000000000 0000000000000000 0000000000000000 0000000000000000 0000000000000000 0000000000000000 0000000000000000 0000000000000000 0000000000000000 0000000000000000 0000000000000000 0000000000000000 0000000000000000 0000000000000000
0000000000000000 0000000000000000 0000000000000000 0000000000000000 0000000000000000 0000000000000000 0000000000000000 0000000000000000 0000000000000000 0000000000000000 0000000000000000 0000000000000000 0000000000000000 0000000000000000
0000000000000000 0000000000000000 0000000000000000 0000000000000000 0000000000000000 0000000000000000 0000000000000000 0000000000000000 0000000000000000 0000000000000000 0000000000000000 0000000000000000 0000000000000000 0000000000000000
0000000000000000 0000000000000000 0000000000000000 0000000000000000 0000000000000000 0000000000000000 0000000000000000 0000000000000000 0000000000000000 0000000000000000

0000000000000000 0000000000000000 0000000000000000 0100001000000000 0100001000000000 0100001000000000 1100001000000000 1100001000000000 1100001000000000
0000000000000000 0000000000000000 0000000000000000 0000000000000000 0000000000000000 0000000000000000 0100001000000000 0100001000000000 0100001000000000
0100001000000000 0100001000000000 0100001000000000 0000000000000000 0000000000000000 0000000000000000 0000000000000000 0000000000000000 0000000000000000
1100001000000000 1100001000000000 1100001000000000 1100001000000000 1100001000000000 1100001000000000 0000000000000000 0000000000000000 0000000000000000

0000000000000000 0000000000000000 0000000000000000 0000000000000000 0000000000000000 0000000000000000 0000000000000000 0000000000000000 0000000000000000 0000000000000000 0000000000000000 0000000000000000 0000000000000000 0000000000000000
0000000000000000 0000000000000000 0000000000000000 0000000000000000 0000000000000000 0000000000000000 0000000000000000 0000000000000000 0000000000000000 0000000000000000 0000000000000000 0000000000000000 0000000000000000 0000000000000000
0000000000000000 0000000000000000 0000000000000000 0000000000000000 0000000000000000 0000000000000000 0000000000000000 0000000000000000 0000000000000000 0000000000000000 0000000000000000 0000000000000000 0000000000000000 0000000000000000
0000000000000000 0000000000000000 0000000000000000 0000000000000000 0000000000000000 0000000000000000 0000000000000000 0000000000000000 0000000000000000 0000000000000000 0000000000000000 0000000000000000 0000000000000000 0000000000000000
0000000000000000 0000000000000000 0000000000000000 0000000000000000 0000000000000000 0000000000000000 0000000000000000 0000000000000000 0000000000000000 0000000000000000 0000000000000000 0000000000000000 0000000000000000 0000000000000000
0000000000000000 0000000000000000 0000000000000000 0000000000000000 0000000000000000 0000000000000000 0000000000000000 0000000000000000 0000000000000000 0000000000000000 0000000000000000 0000000000000000 0000000000000000 0000000000000000
0000000000000000 0000000000000000 0000000000000000 0000000000000000 0000000000000000 0000000000000000 0000000000000000 0000000000000000 0000000000000000 0000000000000000 0000000000000000 0000000000000000 0000000000000000 0000000000000000
0000000000000000 0000000000000000 0000000000000000 0000000000000000 0000000000000000 0000000000000000 0000000000000000 0000000000000000 0000000000000000 0000000000000000 0000000000000000 0000000000000000 0000000000000000 0000000000000000
0000000000000000 0000000000000000 0000000000000000 0000000000000000 0000000000000000 0000000000000000 0000000000000000 0000000000000000 0000000000000000 0000000000000000 0000000000000000 0000000000000000 0000000000000000 0000000000000000
0000000000000000 0000000000000000 0000000000000000 0000000000000000 0000000000000000 0000000000000000 0000000000000000 0000000000000000 0000000000000000 0000000000000000 0000000000000000 0000000000000000 0000000000000000 0000000000000000
0000000000000000 0000000000000000 0000000000000000 0000000000000000 0000000000000000 0000000000000000 0000000000000000 0000000000000000 0000000000000000 0000000000000000 0000000000000000 0000000000000000 0000000000000000 0000000000000000
0000000000000000 0000000000000000 0000000000000000 0000000000000000 0000000000000000 0000000000000000 0000000000000000 0000000000000000 0000000000000000 0000000000000000 0000000000000000 0000000000000000 0000000000000000 0000000000000000
0000000000000000 0000000000000000 0000000000000000 0000000000000000 0000000000000000 0000000000000000 0000000000000000 0000000000000000 0000000000000000 0000000000000000 0000000000000000 0000000000000000 0000000000000000 0000000000000000
0000000000000000 0000000000000000 0000000000000000 0000000000000000 0000000000000000 0000000000000000 0000000000000000 0000000000000000 0000000000000000 0000000000000000 0000000000000000 0000000000000000 0000000000000000 0000000000000000
0000000000000000 0000000000000000 0000000000000000 0000000000000000 0000000000000000 0000000000000000 0000000000000000 0000000000000000 0000000000000000 0000000000000000